DC BF B0 8D A4 64 72 2B 95 FD DD FF C1 9D 18 03 35 49 1E 0F 68 87 0C 03 9D 59 5A D6 FAB1 4D C3 02 DC 8E 5A 14 06 59 6F 24 CF 2F E0 2F CB 42 28 82 7E 35 F7 24 21 A0 23 EB C598 BA 6E 1A 31 7E D9 BF F7 71 E8 3C E5 08 6B 5A 84 61 9F 4D BA EF C2 D5 CF D3 78 F2 8EC8 3E F0 D1 2D FE 41 93 E0 1A 77 76 74 55 9E A2 8A 89 56 FB DC 20 3D 4D C0 83 BF 2D 2CA6 42 55 4B 7F F7 15 A9 73 7D 13 D1 22 06 3D E0 EC 64 D6 94 E9 85 7F 34 57 94 E6 B8 2D30 80 7A 1D 5F A7 4F 2B CD 53 5E F2 2E D8 B0 D5 39 44 3E 9C 5D 73 ED 09 04 14 44 45 ECBD 42 84 D5 EF D7 AE 1F FF 70 07 89 E1 8A B0 70 D0 25 99 36 91 28 81 4B 2F 43 CA 7B 471C D4 9B 52 6F 02 60 66 9E C9 1E AB B0 EF 53 CC 5C 3C 6A 22 42 76 4F 7B 88 24 5A 86 A892 CD 78 76 73 B1 64 64 7B 1E 3A BB 7F 89 3D 2E D6 F9 70 23 1E 08 E3 1C 4E 7D E3 82 15BC 93 C1 39 E0 0D 3A EF 5B 9D D5 17 E4 60 E9 22 12 0E 33 56 37 BC 30 0D 9B A1 73 01 82F4 9A 50 34 53 61 44 D0 3C D8 20 DB 89 BF 5C 6A 22 C3 1E 56 FF 67 A9 A4 70 91 EE 57 EBA6 29 3C 07 A5 1C 0B 8F C5 59 64 90 8A 55 BA 88 5A 06 53 A8 A1 4A F2 AA E1 07 FD 5E 7F5E 4E 2E 1B 63 89 57 AE 4A 47 18 7F 1D 4B 4F 79 C8 B1 56 BA 85 5C A8 9C 04 8A 72 9A 091D 4B F1 12 7B 07 83 EA 95 A2 6D FE E4 B1 9A 82 23 CF B4 4F 45 43 AB F7 DA CF D6 6D E870 C7 A3 32 80 81 3F 33 22 86 2F 7B 2B 2C 02 AE 2B 3C AB 6C 8F 90 30 1A 15 24 06 B6 FF95 EE EC 14 F1 12 78 6F B1 B7 DC 8E E4 30 F1 15 BE 92 EE 6B 65 22 BE 1B B5 23 E0 E0 97F8 5C 1B 83 1E FD 7B D1 AC 24 4B 0D 9C 90 36 DF 1E 68 45 C9 A1 66 1B AA 0C 7B 59 FA C1AC 0C FA 02 94 DC 1A 04 A6 FB 2D DB 44 DA 29 27 42 78 7B E0 3F DC 1A CC 28 13 B7 2B 552E 62 99 88 70 01 0D 6D B6 E6 2E 9F E1 DC 9E 23 FD 63 05 05 65 14 A4 A6 D0 3D 12 A9 8920 53 79 7B D3 BE 8C 6E 6A AF D4 E3 3A 78 1D F6 11 E3 30 0D C6 46 E3 91 35 16 9A 1B 053B B4 D7 0F 48 B5 0F DE E1 DF BE B3 5E FE 8A EA 94 B9 3B 3F CB FB 77 86 8E C6 2F A0 5B9C CC 2C F4 07 ED 5D 21 71 09 26 E6 0A 9D 4A B1 EA C7 2B 14 D4 7C 85 E5 78 7D 05 40 25B3 82 DD BD 59 55 2A A2 07 BD 72 6E 00 22 5C 28 6B 77 F7 44 27 A3 FC F9 53 F2 76 AF B510 01 CD 58 C3 E7 DA B2 41 35 EF F7 E0 F9 AD DF 06 36 16 E8 BF 33 C9 19 3B 34 7B 1A 0B68 F3 8D 74 C4 EB E4 79 18 4F 38 F7 2F 6E E3 CB C3 02 DB 23 62 18 C7 1F 93 30 06 1E 47B3 6B F6 CB 20 35 F5 00 2A 99 AA A9 49 B2 F9 C3 68 72 68 B0 E9 4A 4A 93 7C 1C B6 E2 22D4 BB 19 E2 55 06 0E 52 C9 AD A7 E5 FD DB C8 9E 4F E1 9F 27 6F 99 E1 AE 94 11 E3 C4 7CD7 67 6C 3F D6 D3 62 B2 AB F1 CD 2E 19 AD 28 C2 EF 47 C5 E0 72 3A 83 68 0A 0C CB 75 434B 81 FC 4E F4 85 CE 48 95 97 A6 4F 4A 4B 54 67 A6 29 27 87 64 73 58 2C D2 38 2E 6F FEED BB D4 36 59 2B E5 BE CF E7 A1 0D 04 1A BD B1 31 67 6A FF C6 48 F5 B2 32 1B 15 D0 9503 B5 D0 54 18 DC C8 FA A6 CE 74 CA 35 1E 2E 46 25 E9 AE 01 CD D1 4B F5 42 A3 E4 D1 8A9E A1 74 FC 1F E0 17 AD A3 66 76 F2 CD CA BD 64 F2 CB E6 A7 7F 5D 26 B4 62 3E 30 F8 EA6C DD 8E 6B F9 CF FB 03 FB E4 CA 60 73 FC 57 03 2D 96 36 91 92 6D B2 D3 39 2C 16 F7 D378 7F 7A F6 E9 ED 54 9E 94 9B F1 0F 3D 62 F9 9E 20 AB 46 8F FA 55 2F 2A CA 20 3C 91 233F ED 82 EE 6C 98 21 4D 42 9F 40 88 BA 0E C1 0B 20 01 40 50 9A 05 67 97 78 63 DA 5A C543 CB 9B C0 69 EF E0 B7 2B 2C 6C 09 19 E1 D5 72 7F D8 68 96 38 0A A8 96 12 0F B7 EF 3EF6 FF 62 90 29 07 06 75 A6 A5 4F 9B 3E B2 C5 30 D5 8E 13 09 90 98 C0 E1 4C 02 DA B0 77C4 CB 01 63 01 5F D7 A0 E3 8B 06 C1 11 AE B3 41 C3 73 75 18 B0 59 51 A7 0E D6 4F 48 C388 33 03 AC CB A6 08 50 1A 5B 5E 7F C9 17 20 7D 44 E2 AC BD 03 1A 06 08 31 47 53 55 9D94 BE 03 EB 9F D0 DD C3 2F B8 4D 2E 70 D6 A0 A3 6F 0B BD 3F A2 FF D9 B3 D1 B3 1C 27 36B6 42 0C 77 1B CF 34 B0 BE 7A F6 28 1F 5E B7 4B 82 E9 04 B9 D2 97 04 2B 71 51 3E 59 2017 2F 1B 43 37 5C 0A 3F 71 BB EC BE D8 7F 6C C7 F1 42 FA 33 9A 31 37 83 08 4F D8 9F EF49 5F E1 F7 17 E1 F3 AB 0B E6 B7 A3 FA 00 30 3F 44 AA 31 3E 17 86 50 19 49 C8 79 C1 2F49 29 39 F6 A6 D7 58 8B 52 A0 B4 90 EF E5 92 10 68 5D 88 F9 21 C8 29 6C 3A 49 11 C0 6B91 59 D7 3B 5E CD BA 9C 95 CD FA 62 5D FA 3B 73 E8 2D 06 F7 4B 58 98 C4 81 12 50 D4 EE69 8F D2 74 7B EE DE A5 0E 4F F2 8E 1D A4 88 CA FD 5D 91 FE 43 85 95 D6 5F 19 2C 6E DA82 2C 52 71 71 C3 FE 26 AB EE F3 6B CA CD 03 79 25 00 4B 07 87 86 03 4E EC 6F 28 3A BAD3 CA 6A 20 47 00 A2 B6 FD C7 82 28 BD EC DC 11 F6 FD 51 26 C8 3A F4 D5 CA 85 DD 7A ACCF 17 84 B0 2A 0C 1F 9C 4F D3 AD CB 93 2C A2 B0 E1 FD B8 8F B6 31 73 B8 10 DC EA AB F66C C5 97 85 AD 4F 5E 2E 1D 5C 8D 76 A7 54 2F 7A 63 E7 2F 73 7D 6C 7D 99 C2 BA AA 16 A55F F8 9F DD 77 96 A4 11 77 9A 76 00 23 5E 1B 3F 51 FC FD 22 0E 12 C2 BD F8 44 FE EF 6014 A9 97 AE 89 7B E9 7D FA 78 23 BE D0 3D B9 B5 0F 0E FB CB 90 CD 6E D4 E9 CB 01 7D D94C B8 EB DF 1B 5A 45 8B 06 F9 CC B0 D4 14 C3 C8 F9 24 D5 EE 5F 75 54 58 9A 7C DB 37 56FC C0 52 3E E9 07 43 21 DA 8F D4 82 A7 C4 E8 02 A3 CB 5D 92 64 22 9B 2F 97 8E 79 03 F722 F3 11 FB 82 9D D2 AB 16 34 AF 98 FF 03 DF E7 C4 EE A7 9F AC 34 57 CA E3 63 79 45 7BC7 FD B9 5F 6A 90 0F 8E 35 C4 4C 55 A5 4B 01 5D 55 7C 41 F3 6B 40 CA 3F 4F 7C 98 CB F74F 0A F2 FD 57 3F 38 B4 9E E5 31 B9 59 F7 5E 09 92 14 B7 A0 1E 77 DC F1 CE A2 01 AE 785A 1F C9 BC 77 8F A1 D4 C9 6D 9B 7F 55 68 90 E0 85 07 F9 26 A5 1C CA 9F 1F 5A 86 99 0A07 C0 E4 E2 21 75 09 62 96 26 44 8F A1 55 76 F2 26 B9 1A C8 FF 96 9B D0 90 CD 9B 36 2064 D3 AB 51 A5 E6 CE 84 F9 DE 5D 92 B9 B8 6F 67 4E C8 BB ED A9 A8 6D C6 0A 9B 77 E0 F4AC 96 4A AB 1B 0D 55 7A 78 07 41 48 5A D5 5F F9 5D 02 27 50 E2 48 51 62 D0 B3 EF 33 4D84 BA 78 AD 51 63 21 0C C5 33 38 99 6A 79 B0 08 BD 46 57 B1 5A BF 53 59 5D 23 0A DC B48F 3D 46 79 5B 7F 20 26 F1 83 60 90 A1 C8 9E CB 25 15 D9 D7 D6 55 01 80 27 BA B3 3B 2365 F6 96 91 70 B3 C1 24 74 54 93 86 E7 02 9A D3 4C 4D 82 02 7E FA 03 7D D2 68 54 3D FCD9 51 A4 21 D0 63 7A 8A 34 57 B5 E7 A3 A0 E7 E8 5D 34 42 48 8C E3 76 CC 9E 3B 2C D4 82FA 98 73 83 6D 00 30 E2 22 42 A7 90 9A B5 5D E1 37 C4 F8 2A 3D 5D FA D3 2B 0E 28 A1 08F5 C6 81 67 3A 38 0C B7 20 3F EB A5 84 34 89 9B 62 04 38 42 DD AC 5F 76 69 01 51 9E 397C FD 89 41 BA C8 74 1C D6 01 09 DF A2 8F 5C C9 96 6B C9 4B 20 FE 33 1E 6B 5C 99 38 7EF9 3D 65 A9 92 6C AA 86 80 3B 06 A9 CB 27 4F F3 F8 B6 28 05 35 FA F6 67 1F FE 3B D1 9F6D 9D 35 C0 70 65 7C B5 A7 13 60 95 CA 54 3A 84 A9 7D 8B 3F 27 18 BB F6 15 F6 F7 19 DC67 FE 60 4B 8C 76 56 26 C1 E0 11 5D BC D6 84 E5 9B FF FB 9F 98 D6 EB AE F7 1B 95 76 62D4 EE DE 19 8D 57 C8 72 3E 7E D0 B2 22 BE C7 98 5F 3D 10 5F CF DA 2C E1 B3 66 7D 28 9A1B 17 35 04 E1 2D B6 4D 70 6A E5 5B 3E 17 8C 74 CA 05 EB B1 D0 27 1B D1 69 62 38 FC 0799 BB BC E0 B8 DA E5 31 D1 99 76 D4 42 00 1E DA 2F 91 D6 33 0D 5F 4F 75 74 15 2C 7A 2622 3F 6F 76 31 EF 20 72 64 95 20 D1 D5 7B 9A 2F A8 10 C6 E1 64 0C 9D AC 1D 9C D8 AF 310D 53 B5 4A 7B 32 C1 CA F3 4F 07 CA B3 69 A9 1E 80 08 93 EB 51 B6 59 D1 96 C1 E6 CC 81C4 76 2F 0E E8 91 D2 4E C1 B6 9B 70 99 DE 40 27 D6 12 B5 8F D3 D0 DB 4F 75 EE 32 8B 7FF9 11 1B F6 5F 9F 28 01 9B 0B DF B4 35 FC 31 30 89 12 F9 01 DF 6F F5 8B F4 4F 43 98 35C6 39 AB 2F 8C CF 77 61 04 9B 70 F9 F3 FA 78 09 02 AD CB FB 76 75 A3 C2 C4 98 6F D8 6BF7 A3 39 AF 61 75 C1 F1 AD E7 59 8D C7 A1 E6 9C 5E 24 FF 63 CC EE 3A 3C 44 FE 61 44 C77A F7 96 2C 5E 58 38 99 27 24 83 F8 4C FE 68 94 71 98 5D 70 D5 19 30 3D 0D 3C 5E DC B37E 23 65 00 BB 78 0A 16 F1 64 32 1B 1A EA 35 22 B6 A9 47