C4 5A 9B 7C 35 A1 F1 59 97 CE A1 EF 6D 15 F8 96 00 4D 68 C6 97 22 BD 5A A2 9A F4 A1 11
02 81 43 8F 36 34 01 B5 56 D0 20 AF AB 93 F7 7C 78 52 4F E3 4E 76 E3 D8 32 1E BC 6B 25
49 5B DB 87 BF 58 8A 49 77 C1 9A BE D5 F5 8B A4 32 8A 54 6D D5 1F 66 6A C2 E6 43 EA EB
04 61 9A A7 38 ED 80 92 C0 1E E3 BF 11 FA 26 A3 F7 DB D7 97 81 DD 69 5C BF 0E 58 B2 60
0E 5A 9D 49 20 BD 99 46 C6 FF 9E 14 A4 2A 31 30 C0 EC 78 4D 74 A2 23 E7 A3 D2 8A A1 99
72 8A 8D 53 E3 90 31 EC 28 D3 FA 69 E5 E5 8D CF BE 2D 0A CD 42 64 B8 7F A3 BC 80 03 23
D6 7D 52 BF 5A 77 F0 30 38 AA A3 B8 A1 B7 AE 98 FE 5A 9C F7 E4 CA ED 83 C2 93 6E 6F 1B
22 21 62 F9 75 8F 29 A0 A1 91 C6 28 70 9F 06 39 2F 87 46 EF 34 48 E8 4E 9D C2 3E 8C D1
54 85 B2 E1 0B DA 0E 88 D3 F5 DE D2 35 77 64 46 43 6F 1F 43 53 15 82 50 33 35 D6 C7 63
99 EA 94 0F 35 F3 F3 FA 3A AF 49 8A A4 A8 15 9C F4 F1 F3 2E 0B 63 C9 94 7D 48 E2 4A FF
40 D4 79 A5 08 DA B2 33 1E 14 49 71 B6 53 34 FE 4F 06 6E F2 E2 AB B9 3B A5 5F 82 B5 5D
B4 CD C9 D3 89 59 1F 1F 9F 0B 5E 96 57 38 1A 28 4D 6C EC DF E4 F9 BF 8D 39 D1 26 80 17
61 0D 1D 67 FA 8B 9F 68 5A 31 10 0B 89 DF 36 35 D7 FF 1B 25 AD 1E B4 69 1B 78 40 91 73
5C 62 D9 37 84 A9 D4 1F 29 BE C9 54 81 D8 32 16 E6 ED F5 AB F0 3C E4 1D 3F AE 82 F9 8D
98 09 95 4C 75 DC FD 19 83 BF 33 51 A9 81 79 4F 7F EA 20 DD 25 7D 89 2F 37 86 26 C4 CD
BA D1 6B D6 95 D5 22 F0 10 77 11 83 C8 6B 18 70 08 FD 67 0C 7E D6 FE 8C 90 D4 D8 F8 79
E5 06 1B 7B D7 F6 68 A3 1C 6E 8D E0 47 2B 85 B5 2F E5 49 0F A1 C1 03 04 2A D6 7F 5F 99
AA B5 25 78 07 E0 A3 48 AC 50 CA EA BD AA A4 21 AF 08 E4 E1 5E 69 2D 9A A8 66 44 68 47
11 9B D9 CC 89 78 1C 72 F3 46 09 D4 B9 F9 62 04 67 83 4D E3 74 30 16 A3 E1 FD 12 0F C6
87 FF 2A 79 81 E6 7D 98 67 05 8E 23 7B DC F2 39 79 1A 55 6A D2 70 47 42 61 51 86 0F 03
DA D2 BD 35 32 8F 33 38 35 36 A9 2B 49 1C D0 4E 31 D0 76 27 89 00 12 6C 8E E5 8A FB 12
32 63 9B 56 47 09 1E 9A 3C 78 24 4C 88 34 29 00 D2 48 BA 39 34 0D ED 6A 62 07 78 8D CF
64 79 B1 23 40 B5 01 1D 18 5D AF 72 F8 8F F4 AF E5 EF 2B 1B 87 95 25 4C 5B 66 4E B9 67
44 E3 9A 7F F7 4D AB 3C 85 99 6C EC 10 4A C8 56 40 E6 F8 95 8C E8 DA 67 33 AC FB BD 82
7C BC CD F0 A8 F9 0D 8C A4 FA BE A2 91 2A 90 84 7B C3 ED 19 36 AA CD 03 C5 15 5F 7E 0C
D4 66 42 68 A6 CB DE 1F 3E 47 0B 5D 87 64 1E 59 AC 4C FB E9 2B E5 A8 59 7D DF 02 0B 42
2A EE A0 07 37 C1 C2 CC 7A 38 15 52 58 59 29 08 76 82 7A 52 2C 09 02 29 9A 00 3F 26 49
77 CD 68 D9 7D 6A CD 0F 3B F0 6A 1C B0 FE 1E 1A 65 F1 8C F9 5C 0E AA D5 FF C1 B9 CB 68
CB 6D 2C 87 A7 91 D4 31 43 78 31 44 BB 0C C2 50 56 D5 C8 9B BB EB FB B7 CD 79 D0 5B B4
57 1F 48 53 79 FE 0F D9 03 FF 9A 6B C0 B5 37 E7 4D 9C E3 F0 57 94 70 D2 CE 23 70 E0 56
41 5E A5 5D E9 11 C3 55 2A 51 EB 26 93 3B 6D E8 1C EF 62 FE F4 70 F9 E3 F9 26 0C 49 57
3B DD E4 5C 72 97 50 CA 69 E5 D0 8B 0F B8 9F D4 9B CF C6 0F 05 32 AB 90 4D C6 DD 14 F5
C7 D0 50 C3 47 7E 42 3D 97 E2 D4 6B 1E 42 1D 2C C8 50 1F 73 5C 74 4B E4 7B DF 84 6F 97
3C 0C 4A 05 F8 EC 5A 25 B9 45 E5 59 A4 9F 6E 4E AB 4A E5 94 07 A1 2E 95 8A 1C 20 0F 51
8A 34 1F 31 42 44 E3 00 A7 6A 3B 99 0D 0A 40 13 C1 14 5C 01 88 91 F8 B5 7C 80 9F 4A 7E
39 48 3F 56 4A 30 E6 E1 D7 78 42 28 98 61 16 FB 95 A3 5D 32 40 3D 5E 4D 61 70 C9 41 86
C8 97 E0 8D 96 CF 22 57 5B 2D 3E 01 E4 45 D5 26 16 B7 82 B6 B3 F0 D7 E7 C3 D9 EC DC 79
6E 4C D6 E4 9A BB F2 60 5F 5F CF 77 4E 86 B9 24 2A 71 2A 7E F3 6B 37 AF EB E7 22 B4 1F
8D 3C D3 C0 25 AF B8 3D 36 14 A9 F3 A8 8F 5C 80 63 B9 6B A3 B9 CE 08 77 C7 F1 96 6A 1B
5A 64 00 9D 72 EF 80 62 16 C0 F3 5B C9 28 5B 6B 05 C7 0F 68 D0 2B 32 E0 D8 35 01 74 D1
34 6B 8B B6 44 E5 94 62 46 61 A0 91 30 2D 6A AB D3 04 DD 7A 65 FB 43 2E A2 5B 1F 06 82
2D FB 30 32 FD E7 9D 3F 08 76 71 B5 93 C3 A8 C2 6C 55 82 6A 80 05 51 37 98 A4 23 E5 BE
E0 6E 50 72 05 2D 30 C2 83 FE A8 45 69 86 C9 29 5C 8F 59 0A 6E 3D 6F 05 22 91 00 EA 21
E7 86 5B 41 BF 10 1B 2B B4 C5 13 17 7F 10 25 E3 59 1C 7E BF 3A F7 5D E6 7F F8 0E 28 22
12 BE 84 B0 05 C7 30 8D 18 4E D9 BD DC 3B B1 EC 54 A2 CB 59 75 6B 96 96 17 28 C2 08 BE
16 8E 48 EE 21 EC 6E 66 31 C0 B7 76 85 89 AE F8 7A C2 E1 67 6D FB 04 C5 D0 15 B3 3B F9
37 50 78 68 6B 64 F5 4B A5 A3 9A 5A 53 20 F7 0B BD B2 6D 2A 67 D0 12 6D FA 15 38 C2 47
7A 09 BB 4D E3 69 77 F5 93 E8 40 22 67 E3 A4 6A 70 1E 4B F0 17 A1 BD E5 A0 1A 0B 91 66
E7 B5 FB F9 D8 46 68 50 0C D1 DE 49 C0 77 B1 9F 3A CD 8F CB 5C A8 C1 06 01 7D 87 24 49
73 4D BB 42 00 43 A6 A8 30 07 08 A0 AC 4A 5E 82 C0 B1 60 FB 22 9B 2C D6 53 E7 95 EF 14
E3 44 AF BD ED 8A C7 3D F3 0D 7F 9C 09 F9 F4 DD 72 98 4D 6B C2 1F B2 54 01 2A 4D B3 38
C9 DA 51 E6 69 0C 8C 3E 82 E8 6C 43 7D 7C 0A 16 A7 8B B9 11 C7 17 BC 9C 3B 9F F4 D8 AC
94 D2 5E E6 40 A0 92 21 A2 5B FD 64 A8 C9 60 16 EF 23 11 E1 FA 61 B3 6B 1B 86 08 13 7A
88 F8 35 7D 45 3C 63 8A 7C FC C1 73 4D A5 F1 18 8D 30 27 41 07 A8 1A AD 56 8F F8 D6 AD
0D E9 62 CB 6F 34 DE 94 7E C8 9C 97 AE DC AE 40 EF 4E 16 32 DC 5B 8F D5 58 C0 FD E0 24
23 6A 10 E2 3D 46 3E 95 4A 20 F2 95 23 BC 6C E3 8B 75 92 41 2A 73 35 3F 90 88 9F 1E A7
00 7D D7 FF EB BD 4F 0A 85 FB 0D 96 D1 B7 1E F8 54 3A 5C 3E E8 7B 86 9D C7 C6 47 5E 38
0A 3D 11 29 AE 4F 4A 45 E1 A1 DD 23 76 0B 0B A9 CE F6 7C 18 2B F7 4B F4 75 6C F4 0F 59
A6 6D 5D E2 4F 18 4F 7D AE 63 5C B1 DE FD 4D 49 E5 1E E0 59 AB 28 53 08 D1 81 81 A3 19
FA 91 9F 4C 86 0A 08 CB 8E 4F D0 80 D2 4C C4 59 81 12 8B 78 78 B3 F2 82 C3 BA 3D EC 48
9B 51 EB B7 B2 96 F3 EB 19 BD 58 CF E4 1E 6F F3 41 4A 43 4A DE FA 7E 01 7C CE AE 2A 49
A0 D7 5D 73 F6 3E 24 59 97 90 7B 97 C8 1D 7D C6 7E BD B7 EA D6 F7 05 98 4A 71 31 0E 6B
3E E3 34 0C 46 7A 05 3E 4D 95 E0 8F 56 11 8C B1 B1 85 FE 5D 58 C1 0C 83 E8 53 77 2C 4B
14 A1 93 16 8C F9 63 D7 EA C5 7B 23 CC D4 36 17 14 84 69 6E 08 5C 51 3F 9B 7C 7C 8F C3
B2 01 FA 9B C9 49 1F BA EC 7B DC 09 95 46 62 C2 DF 90 93 0B 8F 76 3D 77 73 1E E5 95 2F
67 1D 8A 99 4B FE 09 4C D8 31 62 05 08 8B 94 BC 00 A9 7B 30 30 47 0D D5 0E 6E EC 7F B0
B7 BA 1B 6E 37 F0 A8 C7 E7 29 57 4F 51 36 7A 6F A4 C2 5F BB D5 AE 32 EF 84 AE 3F AC 4B
D5 B6 D7 DC 34 EF A0 11 56 83 0B 73 52 40 DA 57 D6 20 11 70 70 A1 88 90 60 31 01 48 10
6A DF 25 93 F7 C6 D4 CD 46 ED 12 FF 19 F5 9D AC 4A EE 9F BE 98 61 D7 8F B4 F7 86 F5 9D
B6 25 A8 9A CF 68 E8 48 6C 5A 86 B1 9C 5F B2 7D CD C7 E1 C8 7C 3B F9 02 A4 80 47 0E 5D
95 35 69 53 3A CF C4 B7 AB DC 43 DE 64 EC A9 48 1A 20 45 98 06 7C F6 80 5A 91 03 E8 9B
9F 42 00 18 4D C1 B1 7A C2 6B 95 AE 35 C1 ED 10 2E 8F DC 56 FA F6 A6 1E 58 7D 29 D9 BD
F8 E4 87 A0 91 74 2D FA DE 76 1F 22 C3 F2 54 13 66 DF 4F 03 39 0C 0F AA 7F A1 F2 99 BE
59 5C E8 7E 59 F1 8F FD 6D EA C9 24 A9 75 C3 44 3A 40 E8 58 41 96 1D 09 23 D9 E6 3E F0
54 6D C9 9C B0 1F FB 17 E2 C2 60 67 22 D2 8B 83 BC CD B2 A3 F6 F4 60 B6 82 7D 33 77 D5
19 24 96 45 09 EF FC 84 65 C5 AB F8 5C 56 9B 22 B2 74 B6 07 09 44 38 63 6F 46 B8 61 92
1F 4C 18 F4 D7 3A FC FF 45 0F 90 CE 78 5B 90 F5 BB DD 6B 38 D7 9D FB 8A A7 5E 07 F4 20
7A 16 FF E5 14 06 76 3E 90 9D 64 5F 99 37 96 9D 40 D1 E6 33 87 EB 0C 32 78 D2 CD 4B 35
22 89 92 4D 98 EA D4 C8 74 A7 8B 1C 3E DF 9B 3A A3 10 6C A2 42 0D D1 80 66 8F E9 53 F2
F2 02 80 89 9D B3 05 F0 A0 5C 1D 39 2D 19 FD 86 43 BA 3E 7E F8 47 77 1C 95 B7 B9 24 EC
08 7F 3D 46 09 B6 B2 8D 67 82 D2 69 8A 07 FF 52 FD 02 D8 A2 66 BC DB CA 0A D1 3B 73 6F
C7 22 B6 BA 1B 22 8D DF 98 D6 4B 2E DE D5 8F 0C 18 87 1E