04 97 69 D9 E6 AF 18 BC 64 EF 8F BB E2 FF F1 E7 70 B0 B9 12 27 50 18 02 F0 50 14 51 BD
73 C6 07 FA 60 17 B2 BB EE 58 A5 6D 17 52 33 70 86 B5 D1 CB B7 E3 F2 3F 48 7E 2B 9E 08
66 3C ED 50 EB 9C 32 FE 6B E9 E5 9C E5 55 4A A8 49 E0 9C ED 78 9D 27 14 06 DA 84 FA 6D
93 6D E4 D5 8C F1 BC 2E B6 2A FE 13 C5 3D 7D 8F 11 68 5A 5C 4D D5 2F 3C 57 C6 45 5E 85
CE 3E 49 72 AF 66 8B 81 98 92 A8 7D 8A AD 02 23 A4 E7 9E BF 34 71 B1 8F 36 BB 0C 63 2C
77 0B D7 F4 EC E2 C4 B7 E3 59 6D 1F 56 4C FF BA 8F 41 AF FF 3E DB 9C ED 5C 3F 1B FB F9
C0 83 A0 9F 17 4C 40 7D A3 D7 C1 91 51 13 B6 D7 94 02 E3 FA 15 39 10 6F E2 39 09 3B B1
C7 07 54 1B E2 0A 9C 19 32 C4 CD 43 6B E6 A1 58 7C 2E 18 F9 53 63 C0 B3 D5 18 D7 B4 1F
1B 63 50 D3 00 63 8F A4 36 B6 47 75 5B 79 D0 5C 23 93 49 CA FF FE 5E 81 A7 6D 2C D1 55
B7 29 0A A4 79 4F 42 1B 18 C8 38 FE 21 3D 12 3E E1 E6 62 DA 62 B2 B6 72 54 42 59 16 1A
64 C7 7D 71 E3 C0 09 16 CF 34 5F 52 CB 8E 91 4C 33 99 58 E9 A9 A6 BB 9F E5 C1 62 CB 62
53 3A 2A F7 E8 83 35 5A C5 18 3A C4 16 78 3D 8B 4C 47 35 F0 0D D1 9F 19 AA 00 5E 98 F4
6F B0 62 93 3F 69 52 35 72 7B 5E DD 9B 70 0B 97 56 3C 16 14 AB D7 60 DC D1 F7 89 2D 72
3B EF 4C E8 E2 F8 8A 81 25 2B 2C 61 DE 1C BF 58 23 49 B0 28 C8 19 61 6F 8A E9 81 83 7E
0C F0 0E 45 F2 85 51 7D 8A A0 72 44 46 5C A6 5F 97 69 0F 10 3A B6 55 DF 2C 2D 15 F6 1D
70 46 C7 8A 10 C7 8B 17 C8 69 4C 48 AE 8D A3 01 72 C4 43 94 EF 2E 74 1B 89 0D F5 96 53
94 FF 37 6F 98 B7 C8 85 05 38 36 57 8F 67 BD 36 01 8C B8 21 3B 7E DB D3 5E F0 EF CD A1
3F 4A C9 5A 40 CB 1A 24 6F FB 38 BF 3F A4 FB DA E2 D5 8F 34 92 A0 41 17 C5 BC F9 02 F9
37 A3 FF B9 C0 46 1B 9D C7 5F 7C BF 46 8E 59 6B A3 DB AB 41 CF A2 06 FE 32 E6 AB C7 6B
DE AC EC C0 F9 93 40 13 E4 47 07 27 EB 9C FC 41 4F 5E 57 E1 2C 78 73 15 7A 06 63 79 58
99 27 82 29 64 5C 2A 13 05 58 13 07 3F 3C 06 F2 29 F0 1B 62 56 91 62 7E 4C 30 D9 6F 7A
1E F6 AC F9 FC 82 32 08 D0 52 D6 D1 6C 35 CA D7 84 30 BF 6C 21 E0 47 56 7E 3E 7A 5D CE
B7 A9 82 05 D3 EF BE AC 61 6D 86 67 F8 CA F3 87 09 39 00 D9 49 BC 06 BA 40 C6 6A E1 97
6F B5 CD AD 27 C9 F7 B5 C5 4A 09 5D 96 C6 EF 8E FD DD 2B 99 F4 8E 16 08 19 EF 2C 0C 33
4C A5 A1 9A AB 71 A2 45 24 AA 26 A9 93 A3 B5 50 A9 94 26 B9 9F D5 A9 5E 3A 5B 77 78 50
F2 BB EB C8 FE CA 6B 28 29 6D BF F3 53 75 A5 DF 0D CE D0 C3 70 4A 15 58 19 4B 3B 94 3F
1D CE 06 33 B3 57 DA F1 B5 7C F2 47 B0 67 C3 77 E3 F8 3E C4 D3 AE 37 4A 86 7B 00 7B B0
04 C6 1B F4 01 A3 A8 DA 8D 34 7A 03 D5 71 9F 54 5B 51 71 05 19 3C 45 01 44 2B 86 BF FC
1E 2A 11 E9 A1 D1 46 6F D2 2F 9D 13 96 09 92 99 A1 F6 B7 34 91 EF 28 4A 5C 60 D3 18 1F
17 74 8E 79 A2 B8 AE 9E 37 F4 34 8C 5F F7 ED E5 77 8C 59 04 3A AC 55 B2 49 E6 8B CC 6C
36 DB E7 48 33 C7 9A E6 0D BE 05 17 8B FB 0F 07 89 E7 3C 0E 14 97 86 9C EB 20 B5 1B B5
46 AB 80 37 F9 03 D6 20 7B E4 C9 80 7A 9D 56 54 35 E0 F1 6F 75 DA F7 81 09 DE 0E 3F 75
B4 E8 EB C3 8A 81 FF 68 2D 55 69 66 16 A6 75 1C 4C 94 DA EF 8A F6 06 A8 7B C9 EC 6B 60
EC 9A 65 14 96 44 A5 BD 19 D3 D2 FC AE BF 36 D4 C2 E7 F6 3F 3A 46 09 66 60 41 94 8D DF
0B 85 C8 CB EF C9 C0 04 85 34 44 68 6C 58 35 E4 30 01 42 9E D0 AB A0 DA 5B 39 76 3E D3
70 36 F8 B6 AF FE B7 4A 55 6D 20 A9 52 4A 38 86 4F 5D E3 4B D6 B5 BA E9 6E CF 9E B5 CB
D7 8B 2D 15 7A F8 E8 33 C3 65 41 38 23 9E 3A 9C 46 0D D1 47 53 5F 94 D3 2A E5 6C 6B 63
0D D6 1B FF 34 56 0F B8 75 EF 9B B6 E6 D4 FF 82 42 7A 8C EF BE 92 40 86 98 18 49 1A 84
E4 82 23 A2 9A 25 9D 29 64 5C AB E1 15 DD 98 91 40 89 7F 50 76 75 DF 09 5B 81 69 31 CB
63 7C B7 B2 FE BE 3D 6A 77 93 29 48 70 93 D4 DD 8A E7 3F E6 4A F8 A7 DB F5 F3 C4 94 8F
8F 01 90 20 8F F9 EA 1E A4 DE C7 E5 99 42 43 88 51 6B 80 52 EC 25 5D 1A DD 87 0E C6 A7
2D 2F 80 FB 74 76 27 CF C0 AD 34 EB 9F 38 7B 68 1A 1D D8 16 A7 60 AB F3 47 53 B0 E2 55
67 A8 C5 84 DC A9 BA C7 85 BD D1 B1 A4 F3 D7 FF 9D A3 25 CD D6 1E 85 35 F9 67 C9 0A 52
A4 1D CD 36 BC 6C 94 29 55 51 3F CA 46 19 33 F5 EF 90 29 2B F1 90 A1 0A 2B F8 8A 63 65
57 78 E8 8D DE 95 7A 9F 5D 9A 82 43 37 BC B7 45 3C EE 57 15 0E 70 42 74 39 07 E3 64 B7
D4 38 28 70 D4 40 2B E1 E2 74 83 4B D3 9B 8C 89 C2 52 48 2A 1B 3A AE 38 EB EF A3 36 B2
90 59 6D 12 07 06 16 8F 68 64 5B 5D AE AC E2 CB 9E FF 0D 6B F4 B9 65 28 38 CD F8 B2 7C
4C BE 0C 79 B5 37 EA 68 9B A9 CB 2B B9 FF A1 C7 F4 80 5B BF 31 35 4A B4 18 96 A6 74 42
F3 B1 DA 0C A9 9E 3B 28 D1 B8 12 11 24 06 C2 1B B9 60 39 A3 7B 3A 12 11 E6 FA 04 75 22
23 60 C2 4B FA 40 79 1D 7C 99 C7 C8 FD 8D E8 BE A3 03 A6 E4 79 6B 82 CF A1 2A CB 62 4F
E4 45 35 EE D7 D5 DC 71 D7 9A 12 B6 F7 7F 69 24 BD 21 3E 0B D1 BE 8F 68 46 C4 FF FE 73
76 F4 39 0C AD 04 C9 99 6C 4C B3 A0 7A 87 0B 90 C2 FB 1E C0 86 A2 0B 8A 29 7E B1 CE 77
BD 84 A5 DC 2A 54 7E 88 4D 42 10 A0 DC BC 0A 14 69 53 63 FC B7 76 43 36 73 3C 97 D4 A9
02 82 B5 0A 6A AE 0C 4D 2D 12 D3 CF C8 23 7F A7 10 05 BA E9 ED C7 91 4D DD 82 34 0D A8
56 68 FC 3B BC CC 6B 97 B8 A2 48 BA 05 EF 7F E4 0D 7C A2 AA F0 5F A2 93 1D 51 6D 38 94
FD 10 CE 5C 64 82 19 81 6D 4D 2A 80 55 69 0E B4 92 1B C3 E5 03 4B B5 A3 FD 4C B3 4A 35
67 EE CC 16 6B ED D5 72 C2 57 7A 68 2A 7D 54 7B A7 EE 5D 53 48 F2 7C 7D A5 80 DA 70 9C
7C A8 D0 1B 1E 68 63 10 1D 11 4D 79 18 AA 7D 76 56 C5 69 47 7D 0C B4 05 C7 8B C9 20 3C
4E 8A F6 C3 86 86 4C 38 B2 97 A7 73 96 5F F2 F7 AC F6 73 57 80 07 D3 BA 5C 5E 08 CC BF
F7 66 7D 1C DD D4 BE 4A 89 26 2F DE 29 B0 B2 80 63 45 6A 56 DB 60 F2 6F 5B E4 89 90 F9
34 ED FF C2 1A D1 50 DD 76 B9 8E 26 61 4B 43 BE FB 34 6B C1 B2 51 0E 6B E9 62 63 E9 55
2D B1 96 D2 1F 6E 86 D6 43 56 B6 0F 76 ED F5 8F DC 8D CF 18 AB 16 85 DB 0D C6 D0 9E A5
A6 A9 4A 8C 1A 2E 5D 1C 5B 7C 57 A3 D4 47 08 AC 4B 0C CD 0D CB 5A E3 88 67 1A 4F 94 9B
E5 F5 61 A9 CE 28 46 B1 C2 35 24 34 63 E5 84 50 75 AF 62 5C 13 80 B5 9D 23 5A B2 AA 77
26 F0 4B 00 7E BA 25 CF B8 45 EF D2 7B 1F FC 16 9B A4 1D CF BA 99 04 CE D0 E8 24 3A F9
82 18 E1 0C 86 E3 CF 77 FF 0C A0 53 9E 5C D2 8D D9 D0 DF AC 22 3C 16 61 B4 FB 9E 6E 7A
5C 0F FE EC 6F 3B 20 0A F6 F6 09 3E 94 EB 6A CD 82 4A 9F 30 28 18 49 AF A1 1E B7 45 9B
7E D6 03 93 B7 C6 27 5B F2 88 F7 EA 46 00 EE D0 2A 6F 2B 3C 55 50 02 04 42 BE 18 A8 58
9A 0B 3B BB 68 86 90 48 BF 9D AE 0A 62 6C 33 72 23 E7 FD DF 12 B6 D0 5C CE 58 6C AB 46
71 BD 8A D9 5D 2C F9 A9 34 33 6C CA 28 3D 36 CB 49 6F 21 87 EC 0D 90 F4 28 E8 B8 CF C5
98 19 B9 74 98 C0 5B 0C CD D1 76 F1 D7 B2 4A 76 CE DF AB 7E 6D 3F F4 B7 66 81 0C 1C 08
64 D3 C7 49 27 9F 1E 75 EE C8 00 E1 AB D0 F3 CA 4D 8F 77 4C 73 61 C5 51 83 EC C8 AF 34
D3 4D 28 8D 73 8F B5 08 28 A2 78 1B 2B 5C DC CC 03 F7 6D 5D 4C 0D B6 BF EE 74 2E AC CE
30 E1 C1 A7 4E 2B 70 09 75 AB 8E F8 6A DC 42 9B A0 FD 0C 10 6B 0C 1F 7E 14 A2 B3 94 C1
84 A8 96 6B 1B 5C F5 0F 52 9B B1 0C B4 86 7B C6 4D 3D 46 04 1B 59 0E 22 3C 4E 55 78 5D
7B 6E 3E 82 0E 70 E9 4A 2F 9D 5A 60 3E E8 A3 90 E4 D4 A4 E0 57 F6 28 79 24 05 7E FC FD
00 CB 95 29 4B 34 3C C4 01 39 C0 92 F0 69 DA A7 4C 84 74 29 F6 52 FC 6F DE AC DF 1E C7
E4 63 15 BF 54 38 A9 AE D7 AB 1D D9 3A C0 5A CF 79 6C C0 56 29 4C 33 7B F9 83 4E 20 DD
F0 EC B2 AB 05 76 29 8C E3 F4 6F 10 52 2D FF C0 71 29 92 D8 CA 3D B9 0B FF DD 4A D9 04
E9 C4 39 FC 5F AD 1C 55 09 71 D2 D4 00 48 7C 74 F1 D8 19 37 C4 38 07 AD B9 B5 35 3C A5
EC 28 5B 79 E1 4D 2C EA 26 39 7A 70 E0 88 A1 DF B0 D4 43 7E FE DB 1D 3A 66 E8 B6 57 81
48 26 09 99 E5 50 5E 46 CE 31 DB 4F F2 09 F1 C5 D0 EC CD