EC 4E FC 76 3F 26 1A 7B 83 11 E3 C2 DD 0C C4 64 CC 9F 6C 6D AF EB 04 88 4D 76 DE 8D B5
9D 58 60 EF 93 03 B6 39 B5 96 BD 47 93 32 26 6E 17 EC 44 46 13 F6 CF 1E 66 1A 20 E4 90
5B 29 E4 2E E6 03 D1 46 2A 17 DF 57 E2 0D 01 A8 1A CB 96 09 E0 5F C6 C7 C8 B9 CD C0 B2
FE A1 90 47 58 C6 3E 27 67 1C 2F 90 A5 39 1B 62 95 FA 95 72 6D BB 92 5D 04 AF DB 49 F7
E8 C7 63 56 31 D1 EE 91 DE E5 7C 9E A2 08 A3 4A EB A6 FE FB 1A 2F 4E D9 3F EF D9 89 C2
C8 47 8E 7D 73 A2 9F 97 17 28 6F C3 81 BF 5E 93 10 4F DA 7C 1D 78 7C CE 47 F7 CE 3F 39
26 28 AE 0D 58 EF CA 87 E4 95 32 5E 8D 71 D2 77 B9 2F 81 CA BE 44 D8 F8 35 58 51 17 87
49 8C 42 DE D4 F8 79 56 1C B4 E9 E3 62 E3 8A A6 AC BD 6D A9 9E 22 DD 23 0D D8 7F C6 C5
60 CE 80 80 85 D9 EB 5B 46 F2 FF C7 7C 9F 4C 6C 6D 49 D0 77 4C E1 43 0D B2 EB 23 BC 57
F0 C8 86 15 56 4B 5A 7E 1A 4C EF E0 40 9C 68 D3 BE 8E 2D 49 3B 75 C1 34 50 52 37 62 D8
43 3B 0C 2D DC 9A CA F2 A2 6A 74 CE D8 6F D0 75 BF 76 D0 D7 2E ED 76 AE 13 E0 F3 B2 88
E8 31 29 B2 CF 4A B5 DD BB 8E F9 92 94 82 F7 56 A9 FC 2A 0B F0 6F EE 78 57 7E 33 6B C1
B0 79 60 A4 BD 82 1B 9D AC 06 15 D2 D2 04 4F 55 27 A8 5C 29 2A 8A FF 4A 97 B8 21 70 2A
DF 20 BB 50 9B A7 BB 8C 7D E5 C2 0E AF 44 75 98 BC 25 74 51 E3 98 5B 0C A1 FA 04 5F F0
7A 4E B4 0B CF 70 8D 39 FD C4 F9 3C FD 4E F3 04 9F 00 18 84 A6 EF 92 2F 84 B0 29 63 E9
4B CA BC 30 EC 1B BA 00 53 56 88 52 D0 1A F6 AC 70 33 17 A0 35 7E E6 56 35 83 0E 33 BF
14 6D CC 76 38 1B 88 49 F1 0D 12 CC 14 69 9D FF 7A 43 9E EA FC F0 53 44 4B 60 0B BF 04
0F 47 81 9C DD 28 70 5A D5 D7 56 81 0B 9C 99 78 E4 BD 53 9F 87 D2 98 8D 13 56 11 C3 78
09 9C FF 4D E2 84 34 DB 24 AA D9 4A CF 65 D5 16 69 26 C0 23 0F DC 47 7D 13 68 FD 60 77
5C 6B B8 CA 1A D8 EA 33 30 71 ED 85 EC 94 6E 84 58 F3 0D 3A 94 F8 06 EB 1E 14 27 AF 5C
DB 96 31 ED 59 04 C6 E1 ED D1 B0 B1 60 A5 A6 35 76 29 3D FD 58 3C 40 D3 F8 8C FA 64 37
64 80 81 C2 5B F5 BC F7 5B F5 89 17 91 0A AF 22 47 44 93 2A 94 61 6E FC B1 85 FB 31 8D
41 0E 03 58 0A 58 C1 53 3D 43 84 A5 26 38 4C 0A 7D 7B B4 F4 17 4C 1B 0E A8 0A E9 A5 F3
20 D2 2D CC 1D 4F 04 76 B2 DA 9E 41 2D 6B 5C EF 9A 9A DB 9E 18 1C 6B B4 22 CA 29 6F D7
95 35 5F FB EB 82 0C B7 93 7D 6D 89 62 D3 DE E4 D5 9A 26 3C D9 DA B9 3A 4F E1 8B FE 3D
AA C3 BA F2 48 B3 33 74 06 36 77 5A EB 68 E3 AD BB C0 EB BB F0 58 8B 77 F5 72 7D C6 C8
7D A7 62 7C B3 9D A9 26 9C DB FF F1 36 A3 9A 44 D1 EB EB 8F 18 30 D2 34 EE A6 CF 92 1C
66 C7 DC 6C C4 29 B2 65 22 61 E4 54 49 63 1A D8 3D 3E 9E ED C0 58 74 C8 24 D4 9D 81 04
68 B3 98 33 04 45 26 76 7D 78 41 88 E8 5A AF 22 38 F0 D9 19 B4 42 F5 48 BF BE ED 90 56
AA 98 64 9E 81 CA 07 53 74 5D A8 5F 8B FC 65 14 68 55 6C FE 3B 5D F3 E2 12 9A FC 4A 7A
C3 38 D4 7D EF AE 84 1E AD E9 BA 5E C3 D9 C6 F5 8E 36 BC 78 0F 63 D8 48 1F 0D 24 2C C8
7A CD 87 65 B9 4C CA FB 40 9E 12 DB AB B2 78 43 E3 BD 77 D8 14 70 FD 48 54 D4 8E 0C 67
D3 C2 76 D0 29 6A E2 A2 8F 43 E4 73 BC 4E E2 C3 E8 7E 26 97 C2 B7 9F 03 43 64 BE F1 AC
C5 8F DF 4B 58 1B 90 6A 9F E8 A2 57 5C 79 11 4D 6D C6 FA 09 9E 78 BF D5 E9 71 EA 13 0B
E1 69 7A 53 7B 15 82 4A 38 E7 32 1D 4F D4 AD 0D D5 4A 24 93 8D 3A 54 F8 0B 5C A2 D7 D8
B6 C8 5F EA 69 6A 71 CF 2C FC B1 B6 B3 A4 30 F1 82 C5 58 88 22 71 AE B5 0E 73 BE 13 93
5C 56 24 25 9C 52 B1 51 9C 1B 95 63 8C E3 75 C9 EE A8 EB 74 18 58 99 AF 3E A1 BE 2B 95
49 37 30 A1 93 A2 98 5E DB E7 4B 90 E1 0A 03 09 98 8F 53 71 E0 61 A8 53 B0 9B 9C 03 39
B5 26 F0 10 D7 6D E2 0A 6D E1 55 B2 61 A8 03 49 E6 23 8A 98 07 F2 73 1B F1 23 FC 9C C6
1D F1 AD 26 FB 77 62 29 08 FD 93 B6 2C 1A 1E 1E 45 E1 0C 78 B7 4F FC 73 AE 4D 34 8A 47
D3 F0 11 56 B8 EC B1 80 F2 1F C8 7E 77 CC 2D F9 81 36 FE 6C AC AB 6B 9F A3 9F 32 9D CE
B2 FB 26 3C 6E 01 19 28 61 C1 84 1E F2 A4 1B 9E 62 81 9A E0 49 13 DC E5 EF EC B2 B4 F0
89 DA 41 7C 85 A2 03 47 A0 53 7E D9 41 4F CC CC D9 33 F7 CF 93 9B 46 65 A4 10 FE E0 E5
27 33 84 FD 19 BC A0 E8 CA 5F 80 4D CB F5 59 CB 9C 09 3D 5A 12 6A 48 7E 23 30 E3 EB E4
17 CA 07 C9 A9 67 8A EA 76 3A 07 12 8C C7 CD 47 8A C9 1F 2C A5 F1 4D 52 EC E1 CC AE 9E
27 E6 61 C8 00 F6 AC 8A 6E AF 64 09 52 AF 16 61 92 67 13 29 F8 92 C2 B9 E3 08 CF 09 F1
E0 8D 28 43 6B F6 05 84 93 54 D3 74 FE 9A FB 7A AC EE 28 17 BE B9 29 64 B3 AC 9D 94 74
F3 22 E7 FD 46 DA A3 61 CA 6D 75 09 EE 6D E8 1B 96 48 74 8D 19 6B AE D7 B9 14 81 20 D7
24 69 1C 47 16 5A A6 6D B6 86 58 24 5A 9F 7D C5 BF 91 C6 FE 57 4F 46 DB 45 65 81 CA 9E
48 56 73 46 0A 55 A6 8E 9D 14 F4 3A AC 68 24 5E 56 B9 BC 7D A9 CD 6F A5 2D 9C 97 6A 98
8B A9 4D 93 C7 84 CE 93 33 ED 6A 89 42 AE 2A C8 06 61 24 A8 0A A0 42 16 20 DB 7B 68 62
9A 63 BE 5A 06 D8 7E 63 9F 83 BE 5F BD 7F AD AE 53 6D 09 A9 1A AF 0F 68 BE 02 65 C9 54
60 34 F6 C7 AD 7A 39 C6 89 29 41 AC 3E 97 3E E3 B3 8D A1 AC BA A1 44 39 D4 83 D4 42 16
9E 25 60 7D 76 0C AB 6B 0D C5 30 71 8D 51 C2 EB C6 54 6F 76 23 24 9A A8 37 8F 61 3E C3
4E A8 AD 30 69 62 32 71 A9 FB 36 E0 D0 FE 95 EC FA 9D 13 FF 43 38 10 CF FB 2A 33 B3 D2
73 41 14 12 49 DA 09 F6 0B 29 E9 67 F6 D6 30 78 3E 37 2D 5B 07 D1 15 27 EF 1F E9 A0 8A
B8 9A 75 DB F3 2D 0E 66 7A 3A 06 E0 C8 DC 53 86 C5 EE C8 33 AB 9E 00 DD BE 7D C5 90 D7
AA 19 56 74 81 66 E5 FF AB 89 4E 95 96 36 9B CA AF 97 CD 54 DF 62 8F 10 46 B0 25 B1 BB
B4 A1 37 93 D2 C3 74 14 70 BD 41 6E 98 B7 F2 D5 E3 30 DA 5F 77 88 05 37 48 D5 CB 94 1A
8B CB 53 CE 82 00 78 3B E2 29 C1 B0 25 31 AF 9D D4 1D BF D2 75 C4 A5 B2 2F 86 2E 9D 86
BC A6 EE 48 D5 6D 05 15 D5 39 39 C1 14 7F 78 19 94 FB E4 10 8A 15 62 29 E8 88 58 E4 D1
FF 50 85 2B A3 DC 22 75 BD BB DC EA 23 4A 7B B4 E0 58 D0 F4 10 AE 4A 55 B0 11 D0 C2 EA
39 0A 83 72 E7 E9 3D CE E2 29 30 AB D4 67 01 A4 5C C2 F6 69 C3 D3 18 36 41 69 9D 94 F4
A2 65 10 E2 8B D1 CE 6C CA 9C 84 0C BB 43 65 21 DF 95 A9 98 37 91 96 61 39 58 89 93 7B
D4 5D 22 D2 0A 08 61 13 61 C9 91 CE 63 2A 4C D4 45 21 4F 9D 4C F5 9E 65 6D 6E 35 CD 8F
17 59 2C D8 40 97 FC 9C 82 48 D5 EF 56 63 42 02 EB C0 8E 2E 23 17 C2 8D BC 9F 61 C3 EB
C3 AA 80 03 24 64 AE DE 8A 7B F2 66 2B 7A 0C 79 12 C8 BA 66 C9 0E BB 34 B1 80 60 68 9E
3A C9 8F DE 97 60 B9 BB B8 5C 5B 7B 31 5A 72 90 05 43 50 9D A5 D7 1F E3 1D 5B F5 27 22
BC A2 B1 46 DF B3 A9 12 D2 2D 02 FB 1C F9 74 47 B4 C2 02 74 66 0D 10 70 80 CC 9F 4B 7F
7C CE B0 7F D9 F0 62 E6 B0 06 16 42 5C 40 41 D2 D1 E9 18 B0 0B 1A 34 75 8F 71 21 18 4F
0B EF A3 F1 4E A2 59 8F 69 BB 3A 95 20 E4 9B 37 4E AA 3F DE B9 ED 04 D2 25 42 42 74 83
A0 C6 F3 52 F2 61 D8 67 87 F4 22 DD EB 9B 4D EB 5A 1A 0E 48 6D 35 F2 4C 29 09 1B 8C FC
2B 50 73 D9 2D 3F 20 4F B2 B6 26 9F 14 98 E4 22 45 C9 84 0D 61 21 4A CD C4 FA 2C 21 34
AC 8F 0C 73 E1 05 2C CF DF E3 C8 50 A8 AA 9E 33 EE 35 5F DB 0F D1 DF 0D FE BE 48 C8 2B
3D C1 59 D3 39 8C B6 01 58 03 DD CC C3 28 02 41 93 A2 27 F2 51 EF 68 0F 9E 6B 72 74 A0
B5 13 55 B5 43 F0 CC 5C D8 D1 80 01 51 0A 98 66 E7 C2 FC DE DC A5 FF AE 07 08 2C B0 EF
1E 78 4B ED 8F 20 87 58 EB D9 25 4E 93 81 8B DB A6 28 FC E5 67 A9 D8 3A F4 CF 83 02 77
FD 1A 38 69 CF 0C 7F DF 42 51 AB 82 60 06 C2 AD A4 28 B0 27 E5 42 EC 84 C0 C7 83 51 04
97 13 31 7C 1E FA 63 B6 25 99 16 22 59 7B 2C 0E 89 AB F2 66 20 2D 8F DC E9 29 10 FD C5
7D 15 93 78 00 D0 0C A1 25 2E A4 D7 68 30 EB C7 5A EC 3A 5C 4B B1 B5 B4 59 C5 3B 17 93
02 B7 8A 9F 74 DB D1 29 DE 74 91 80 E3 E5 40 BC 08 9E 82 07 D1 BC D6 4B 06 6B 05 E1 AD
CF 48 BF 9D CE 38 F3 20 69 8A FB CE 15 56 25 4F 38 3E ED