BA 2C E8 C2 2E 9F D1 7A C7 58 51 03 98 48 32 C9 02 94 8E C7 36 3A 96 7D 39 71 61 26 36
B3 6F 3E B6 13 4F C1 D8 52 A5 F2 41 5D BF 07 2C DC 1B 50 4F 8D BE 8C 88 B1 C3 2F BA F0
2B FA 2C 17 32 C1 A5 16 34 D4 9B 1B 57 8C CF DE 7D 46 DD 31 C4 EA C4 C4 E7 B6 37 01 34
6E FB 83 AB 50 9E 00 90 D8 06 2A 94 8A EC B9 28 1F FD 6D DE DB 6F C8 89 4A 15 EA 21 07
27 E2 87 98 3C 95 D1 6D DA 18 22 F1 89 8D 84 AD 3C 3A 7D A9 05 4C 9B 6A 09 01 B6 71 16
EE F0 9D 47 0B 64 39 FF 32 90 07 E2 9D C8 62 E1 2C DE 34 14 FA F9 40 C6 D8 E3 AE 1F 18
7D 80 1F 97 E3 EF 65 CC C4 76 9A 46 08 AE AC A3 D7 87 D6 62 A4 F1 46 6B 21 BF F9 48 B0
50 D8 A6 64 BE 83 70 AB FC 12 CF 6C 91 F9 19 4B 22 D0 BB 8E C5 76 4D 3B 83 C8 32 6F FD
00 7C A3 6F BF B3 E0 56 54 AF B4 91 75 3E EA 4C B2 04 EC 94 93 B4 27 89 A3 31 F1 A5 97
63 5A 61 67 33 F4 D2 6E 4F 3B 96 26 94 4B E3 2D 2E 2D 0B B0 78 7B EB 1A E3 ED 9C 28 0B
79 A4 10 70 07 33 C4 43 29 24 37 59 10 22 75 F3 BE 3D 76 26 DD 29 CB F0 E2 35 68 4B 40
86 FC B7 B2 67 4C 8D 60 F1 15 A7 A1 FC 15 4E 71 4B F0 B3 40 D3 D3 45 42 09 7B F6 5F 1D
42 9D 04 18 34 6A F9 29 CD 7B AB 57 AE D0 9B BE 2F 55 10 F4 8A 46 92 A1 AF F0 E9 9C 7E
DE 1C 17 46 10 94 25 D9 67 49 52 7E 63 1B 6D A8 D8 78 46 88 72 D6 7B DB 0B 5B 9D 8D 84
93 D4 65 07 9C C9 E7 7A 3D 93 9E 19 07 AA 40 5C 0B 56 7C FA 2A 85 CB DC 8E 22 0C 9B 9C
5C 4B 8B 68 C0 50 77 80 A5 37 AA 9D A7 1B BC 03 01 86 9C 77 F6 B8 33 50 ED 42 62 C2 BD
1D 2E 9F 4C 37 96 CA FC 38 98 01 8B C4 97 E7 87 FB 3F 62 60 02 94 FB CA 3B B9 A8 2A D2
0C A8 66 BE 3F D5 DB 6F DA D2 95 1B 4F 35 76 4B 88 46 E3 D0 99 38 DE F1 8B 39 95 AE C4
CB 16 19 17 0D DD 6D 24 C4 8E 9D 4A BC 55 F3 7D 0F A3 63 62 2D BA 36 E4 63 36 43 7F D5
77 BB 09 FA 7C 1D 5F 8D E6 45 CB B4 F8 B0 78 C3 A3 47 43 70 EC 71 9C C2 64 ED 03 8A 71
A4 F9 4E C8 A1 BC 0B F9 65 47 C9 D8 2F 53 20 F4 3F C8 65 AA 6D F4 71 A7 5F 1E FA B0 24
31 88 B5 F6 A4 04 93 0D 7F 43 A6 C1 DE FC 8D 68 5E BE 72 5B 67 0D 8B C3 61 72 C5 C9 FD
B9 FA C2 75 E2 07 FC C3 34 7D A2 56 93 42 78 19 34 C4 99 58 08 56 51 16 5F 8C 32 DB 97
64 9D 8E 0F BD 6E 96 39 61 0D 81 E8 F2 F0 D6 70 10 90 B8 5E 1A DB FC 55 57 69 34 39 44
D2 58 F9 67 36 2F 83 55 11 CC E6 CC CD 42 5B B5 05 CD 8E DA 3D 8E 85 0D 84 4D F0 FB 01
D6 40 51 80 67 41 26 94 15 59 2B 87 C6 8D 44 19 B2 BC 02 AC AA F0 5C B7 20 C4 B0 96 A7
A0 06 A6 49 05 A7 E8 39 C8 CD 69 4B FA B1 C2 2E 55 BE 5A CC 9B 98 3D 0C CB A6 77 03 6E
7B 3B FA EE 6A 71 CE F9 6C B0 8F CC 54 5D 2A DC 1D E0 78 3C 23 74 81 BD 6F E1 D6 33 5C
79 21 11 A4 E8 BB A6 C8 3E 66 49 6C F8 C9 48 BC A2 7A 58 2B C8 13 8A BF 9A DF BE 27 53
52 13 2F DB 3B 89 77 33 08 E7 11 DA BC 66 0E 6B 21 BA 98 83 B3 A0 4C 43 D2 A1 E5 68 AD
7D F0 25 E3 C8 60 1C F2 10 C0 46 73 71 9B FC 09 14 2F 0E 4A B0 38 8A 0D A1 69 6C 78 3F
0A C7 E5 18 A4 79 62 4F 94 23 1A 40 F4 9F DA 5C 9A 50 65 07 67 C3 B9 C3 47 3B 31 E9 B5
0C 03 CE 3C 3A 5D 76 C0 12 A6 72 BA 73 F6 3B 00 DF 6C 36 07 99 22 1D BB C4 EC 48 34 27
30 4F 0F 4D 1D 36 44 60 4A 20 D1 87 7E 34 75 C9 73 7B 1A E6 BB 8A 5D FF 48 0A 9D CE 11
57 C9 1C 04 18 23 CD 14 73 B7 6F 38 11 4E BC 28 64 42 0F ED FD 7E 1E 66 1B 40 52 59 59
C7 B7 C1 27 40 44 7E 7B 01 3E 45 D1 10 A3 5F 5B AF 0D 3C 28 06 AB FD E8 8A 15 B7 2E 71
C0 2F BD 18 57 88 69 DA A4 9B 53 E3 E9 68 4C 3F 87 FD 8D BC 57 84 88 58 99 3D 40 06 17
6C 90 16 29 DC 47 BE 42 55 3C 04 5B 2C 1A DF 2A 79 E2 0E F0 0C B7 4A 8D ED 51 47 1D 65
D5 FE 89 DB 94 13 4E 60 8A 7C 62 99 AB 47 29 7B 9B C3 04 5F 28 43 AF FE 9A 03 66 58 D0
56 E3 D7 72 B8 FD 02 04 D3 64 5F 10 46 10 17 9B F5 99 15 88 EF 92 3F 35 6A 0E 73 00 85
CD 57 D9 0D 3F B7 25 AC AE A3 8B 00 22 01 09 8B 9C 15 F2 77 B0 F6 CC C8 33 2E 34 61 A8
7B C4 6F E9 E0 2F 94 B1 76 64 05 5D 00 14 56 8C 30 9B B5 52 DF 10 E4 CD 44 85 8F A3 AD
2C 30 22 67 63 34 23 A5 E8 37 DE FE 18 FF 47 F3 CB AB 06 64 6C 2F DB 0C 2A 19 39 76 37
6E DE 59 96 8B E9 A0 DD D9 68 0A 9E 93 E7 35 84 79 41 6B 2B 3A 54 5A 47 36 6F 2E D9 D3
D6 65 33 1E 03 28 5A 32 F3 A1 1D D3 F1 66 C5 54 77 B9 11 20 6A 5C D9 E3 D2 FB B7 CA E6
57 3D 87 B4 90 1D AC 79 60 83 34 BA 97 5D B8 54 F2 79 45 58 77 64 75 EA D2 30 A0 3E 28
5C E5 66 54 14 B8 EC ED 52 22 EE 41 31 5B 15 35 9F AA 6C 42 0F B2 4C EC E7 B4 72 20 1C
1F 81 CD F9 E7 C1 65 5B C1 D4 3C 2B 7B 5E 56 25 2F 38 96 DD 8E F8 32 35 3A 9C CD EA C8
13 E7 40 7E 61 D3 BE 56 11 58 7B 70 F3 FC D9 30 FC 92 37 49 D2 88 F8 4B 20 74 34 A3 39
D8 D9 5C 34 3B 11 BB 5A 4F 4D DF CB FD B2 4F D2 C6 F6 D7 80 7B F1 4B B2 0D 95 F4 F8 F5
6E 92 A0 5E E0 C8 83 EA 3C AA 9F 1A AC 98 50 B8 D6 01 B6 BB FD 74 72 FE A9 7A 75 F1 4B
28 45 F3 52 0E ED CF 48 1A DE 72 66 9F 67 1B 5A 51 44 5B 10 33 48 DF 47 22 31 22 ED 6A
8B 2B 4A D8 79 FB 56 F8 A0 EC B4 7F EF 8F 1B 52 A0 55 5F F3 29 E8 88 10 C5 56 66 56 DE
B8 5A C1 27 40 DF FF 20 64 5C 00 FF 63 97 95 B6 0C EC 46 CF 26 C1 73 E0 1D 81 4D 33 9D
A7 67 D6 B1 25 25 E6 66 6A B6 37 76 67 16 7F E6 14 7A 78 4F 8B 91 C3 9A 0B 45 26 DD CB
17 94 11 C2 63 1D 4A 82 E3 F1 B9 A3 2E 70 FD 4B 12 88 AD 26 F8 22 ED 1E CA 15 34 0A FB
B0 BA 98 D5 13 D7 33 B5 86 08 3A 97 32 0B C5 5A 6C 61 A1 2E D5 0E BF 4C 13 D3 C0 E0 60
20 DA CD 14 89 17 07 07 4E 94 C1 DA A8 22 B5 E3 5A 76 AA 55 87 D6 C7 9E 8B 63 2E 11 E5
11 58 D8 72 CE 62 4E 5C 1F CA 98 3F C6 18 95 B4 5A 63 68 A2 EA 46 A2 B0 AC 5D 27 69 16
69 08 0D 35 30 AC 5A 6B 09 AF 1B 60 8D C3 0B 78 11 E9 03 04 C8 F2 C6 B1 19 63 8C D1 DE
C5 5A B1 E0 DE 43 81 C2 56 61 F7 34 D3 B1 6C 74 23 F7 4C 9A 24 9E BD B4 45 9D 26 4C 4F
67 FD 54 B2 67 1E F5 7E E0 AE B3 A8 E3 8D BC D8 51 C7 EB 92 9E 50 2C 4C 84 EA B7 B3 D7
42 BB DC 7E 38 13 47 C4 EF 36 2C E4 65 B0 DC AE CE D9 C7 86 7D 7D F6 61 B9 00 6C AD 9A
F8 15 2C 4A 42 36 0D 38 90 54 36 9D 3B CB 22 96 28 9A B7 EA D6 DE B1 3C EC A6 08 80 8E
16 E5 E0 6A 0D D5 A0 6E F3 B4 76 3A A4 D5 CE CF 85 9E F9 CF 61 F6 DF 9D DC F6 F4 4E 93
2F CC 7E ED 6B BF 64 5F 91 06 69 1B 37 6F D3 18 8F CD 9D 23 A1 5E F1 F4 3D 65 6F 14 D6
84 EC 3F 8C 2A BB 52 8F 40 2A 68 F7 9D 09 EE CF CC F1 96 A2 80 BA 0D 53 FE 52 43 CC AC
C0 3B 35 87 40 F9 2E 58 3D F5 59 71 28 E8 F3 08 46 E6 99 69 2A A5 0B 60 A4 F6 A0 C9 B7
15 4D 5C EA 2F 71 BA 6D 46 92 09 D1 DE A8 73 E7 F6 CC 35 3F 31 EF 6E 59 57 37 53 49 B3
62 7B D4 BB AB B9 A3 B1 8A D6 95 2C F9 EC DE F4 E8 EB 20 85 67 A3 60 5A C8 FC B8 B5 21
41 41 03 4F 6E B1 6B FB B3 BD 8F F7 E1 58 69 E2 5A F6 DF 51 D2 B4 6D 4E 59 0F CA 26 54
3E B4 B0 C9 14 3C 1D 85 26 FB 6C 19 4A 31 14 48 85 46 E6 4C 30 BE D2 FB 00 85 98 81 14
3F 17 BA B0 24 32 F5 28 08 46 B3 27 38 83 61 C5 4E 72 C2 A3 B1 A7 44 08 4F 08 4A 7B 04
27 59 80 0C 27 0D C0 C3 33 A8 15 BD 7E 5A FF 25 24 DF C9 A4 86 BD E3 E6 D5 02 C2 AA 24
BE DE AC 99 12 E6 63 9F 0E BE AD 4C 00 77 A2 F8 6A 51 AB EB C8 D1 0C 0A AC 77 9A 36 95
F0 48 BE 1C F4 EA 2E D5 E9 58 F5 7D 4F 53 68 FE 0D CC 1B A6 5B 3D 84 DB 5F 20 C8 6A B8
4B 7E C0 B8 49 B6 F5 74 BE 44 1D 3F 9C 98 3C F9 34 E9 91 99 5D 17 B8 EF 55 AE 07 C7 AF
C6 8A 91 3F EF EC F5 6B 9A 06 37 94 01 46 D9 3C 3D 71 1B 58 BB 00 A9 02 D9 AF F6 1C 9A
4A B6 E9 8F E7 63 22 FE 78 41 9B 24 91 E6 08 11 6F 4E 1A EE 0B 52 AA 11 83 17 DB 82 CE
9F C7 47 B5 D1 66 65 E6 53 2E 27 7B D6 D2 0E 00 5E 9E D4 24 67 82 46 E2 E0 94 E8 4F 3A
92 12 B4 E3 B5 F8 72 FC D8 5E 76 74 EB 4F 48 88 4E 39 98 66 A7 43 6F 3F CC 79 F7 4E 5F
96 7C 95 4E 2E F0 80 83 D7 96 02 B5 CC 35 8D 77 82 FB 77