D8 F9 6E 73 15 82 EF 2C 4F 3B 9A 29 39 51 4B F4 40 9B 3F 37 91 FC A4
8A D0 84 FF 1D EA 58 76 D0 68 35 49 8D 0D C2 71 55 BE 06 0A 33 6A 3F
48 8C 28 6D 3F B7 26 7B CA F1 5F 17 A1 02 1C D3 AF A6 6B 3B 12 F9 FC
38 91 35 0B F7 38 BB 45 92 2B 5C 79 6B BB F2 DF 49 87 23 EB DD FB 68
2B 09 D9 8B D3 B0 DF 0C FA D0 64 F2 BF 55 92 15 04 B3 A2 68 5B 4C 97
A6 30 E6 10 7D 16 EB A5 1C 74 DC A1 F0 18 4F 2C F7 84 AF 16 60 F7 13
C3 14 BE 0A 8B 72 64 31 17 2E C5 DD 95 32 F0 97 11 02 D5 1C F5 70 D9
94 5D B3 DC 12 F6 A5 83 74 94 06 A9 CE 91 6E 47 A4 BB 1D 04 F0 33 54
BC 79 95 19 B3 A4 1C 9F F7 F2 48 06 C4 CF 76 FA CF C7 F0 2B CC 58 A6
D5 08 E0 C2 CF B8 B0 BB C1 13 0D 5C B1 13 A5 7C 7F 66 F1 FE B9 1D B2
6B 2A F2 C2 0A 0B 5A 6E 83 71 E0 3D B0 2F 4B 44 E6 14 29 02 25 86 A5
A5 39 AB 21 F7 CD 58 1A 65 F1 38 CE 29 37 82 05 9C 6C 2C 85 91 61 86
52 70 90 B3 B7 E7 2D 2E 97 7B 2B 59 B7 DD 1A CB 3F 07 1A 56 A0 9F 15
BB 1D 2D 0B FC 7D DB 0A DF A2 19 B4 B6 69 70 E2 C3 E0 EB 63 26 98 29
B8 CF 34 CD 7B DA 32 DB BC 49 BE 2E D0 64 05 D0 23 6D 96 FF EB 66 89
62 3C 42 9F 25 4F 12 0D 8E 02 15 27 BB 75 48 F6 20 E0 F1 32 B9 2D 71
0C A6 B8 99 5C 0B BD F8 B4 62 9B D7 64 F5 FD 42 28 AF 03 43 4F 0D 54
D5 89 A6 7B 62 AF AE 58 22 A1 4F F5 C7 15 E9 8B CE EF D1 30 1F AA A8
E1 C6 C1 16 06 76 60 63 B9 02 5C 92 BC CA EC C7 F9 4F 95 99 96 79 6C
C6 44 DA 30 D4 16 83 3A D1 89 59 2E D5 25 BE 21 E3 4D A0 35 FF 13 F2
AF 78 6E F1 94 D9 A4 5E F0 12 D0 CE 93 54 56 A6 9A 72 BF CC DD 70 17
5E 2C 07 C5 78 07 3C D4 82 F5 6C 90 CB FD 64 90 EF 1F C4 4F 29 15 BD
03 17 C1 E9 49 DC 89 2A 86 A6 01 E3 87 66 84 81 35 3D 8A 6D 78 1D C6
4D 52 B2 58 98 79 9C 90 B2 68 62 11 AA 88 C1 64 3A 1B 74 9E 2A 3C B8
AD 29 AD DA 92 AF B7 E9 6D A7 93 B6 2F 22 5D 11 DA 7F 5A 97 14 B6 7E
38 44 80 5A 9D F8 D8 AD 99 7E 08 1C FC 3D E0 90 6C 69 C0 73 09 C2 2B
E0 89 74 8C E4 C7 A6 4E 57 5E 44 89 70 7A 0B 83 01 EC 79 93 54 F0 9F
09 17 EE 20 05 AF 58 43 E1 62 5E FF 1B 95 EC B6 19 7A 22 84 8C 6A 14
E8 42 0E 0B 50 67 44 96 03 EC 11 6D D4 C2 11 C5 AC 7C DE 84 7B 51 45
B3 96 6E 29 AA 63 76 BE 6B 5E 25 9E AC 55 F0 5B 95 7E 16 0B 0A 06 D3
5A 9D A8 10 DF B3 93 05 F9 CF 27 DB AD B0 5B B1 21 3E 27 77 D1 EE D6
1E 3E 1C 05 33 4D C1 87 68 F4 E7 CE E2 47 65 55 98 86 76 03 B1 85 9E
49 A6 30 00 A8 32 E3 97 B6 F2 E3 9F 58 C4 AB 7A E0 28 5D 64 17 7A 9A
01 59 0B 69 D6 ED FB 09 AA 71 4B EB AA AC C6 6F 25 26 0E 0E A0 0B ED
75 B5 AF 81 09 1C 6A 57 A5 F3 50 B9 97 CD 5F 41 35 ED 04 92 1B CD 9E
71 55 25 4B 76 75 4A 5B 54 8E AB 3B 82 0D 51 51 0A 2B 6F 8C 01 B3 43
A3 EF B6 72 61 FB 74 17 2E 05 30 9E 53 8E 43 7A 7A 91 EC A9 9E CC 84
4F F0 F7 0C A6 40 09 38 51 F2 EF 49 3A 4D 78 04 EA 84 C2 E4 17 8D 00
A0 90 23 A5 FB 7E 4B 15 59 7E 51 5E 2B BF 2E 77 08 10 19 DA 16 1B CB
E4 EA 12 6E 9D C9 74 3B 37 2A 06 B7 AD 15 BE D0 6B 4A 77 31 BD 31 B2
03 62 3E 27 17 54 68 D3 45 D2 54 8B 08 B8 DA E2 4F 8A D9 4B 7A B6 78
87 6A 1E 65 95 B8 51 48 A2 34 F8 16 3B 9C 06 93 B8 91 68 99 B1 5C 32
ED 2A 38 07 99 52 C7 2B 37 F4 B5 67 66 C4 7F D8 FD CC 96 E5 E7 C7 0B
7A FA 8C 46 DC C3 18 03 49 CA AA 72 CD C4 8B 64 B2 33 00 B2 76 7C F5
47 1E 94 EA 59 77 7C 9C 65 39 62 C2 72 CD EC A0 5E 4A A6 1F 8A 02 C0
B5 A1 9D 86 57 5C C8 D4 86 BE 98 DB C1 EF A4 19 AC B7 00 D1 52 86 AF
52 69 8D 7A 76 55 ED D5 94 15 CC 97 F8 6A 03 A4 6C 34 6E 56 0B 52 CC
D0 82 EB D1 D8 52 71 19 66 82 17 81 57 79 51 FE 22 04 5C 9B 25 BE 70
DE B2 01 44 BB F6 32 60 6D 0B 53 0E 17 B9 E8 B7 CC 98 E1 50 AA 8A 17
E7 CB 93 41 6B 75 CF 5E 9C EF B4 0E 93 34 5D 75 BC 59 D9 4B 7D 61 4F
93 8A B6 2F 02 64 9A CB 5C 04 92 01 3A E7 4A 78 8A 73 EB 35 8A D2 5D
69 60 C4 5F 7A 3C 9E 32 AD 29 5C 8B 25 E2 65 33 21 62 4F FD C9 16 C7
CA BF E2 E1 C6 4E B6 10 14 A0 35 F6 BE AF 8E EE 1D 8C 55 80 EC B7 09
C5 3B A0 60 51 28 0E A6 13 83 40 F2 CA 63 97 06 40 2A 45 4E 8B 91 53
C3 1D 2C D9 AF 7A 35 80 FD 79 30 7B B2 BF 9A 0D 67 C5 5E 82 45 ED 68
9F EB BA 84 C1 F6 02 D5 57 C1 23 79 68 BC FC 32 39 55 2E 23 6B 27 94
64 28 D0 1D 3F 92 EC 94 95 5F 31 E0 12 D4 E5 80 60 F7 E1 86 B6 29 F9
8F 8C C7 E8 A3 08 0E 35 58 58 60 9E 0E 7F EB D9 B0 85 59 A8 A8 07 D7
61 21 58 A9 10 71 AE 3A 40 69 C4 3E 18 22 15 CF 69 0F 9B 1B 82 BA F2
C0 91 40 F3 11 68 39 5C 1E 61 6A 45 99 3A E9 82 6C E3 E8 8C F1 68 72
54 93 25 3E 76 6D AE 84 BB 9D 91 95 97 CF F5 F3 A6 97 50 FB 8F CD 07
18 17 4D 25 29 55 7E C5 76 95 E5 B0 B5 0C 74 97 C9 78 71 7C 10 93 EB
1D C2 B7 33 07 A1 7C 0B 4E F7 23 CA B5 2D 99 8C BD 97 CC 54 A8 21 D8
C6 06 9B C8 99 92 EE 58 10 0A A9 3A BA F1 9B AD CF 00 1E AB 6A 14 C9
43 F6 99 EE 75 37 7A 75 5D B2 CA D2 FD C0 EE 2B 5D 05 6B 2F 17 E0 DB
A1 F3 1C CB F8 4C 18 0F 0B 05 82 4D DA C8 F4 EF 04 20 0B F2 86 71 A8
A2 15 2A 57 BB F2 81 37 37 7A 81 9F CC 0C 49 F1 7C 19 44 AE 87 81 69
4F 7B 23 DC 26 BD 27 B1 08 16 4F 21 05 E3 8E 26 CF 16 1C C3 17 97 F2
1D BE CF A3 0C 9F 25 4F 16 89 33 19 76 C6 54 1C 38 82 40 FA CA 58 96
D4 B8 69 99 3E 0F 25 FD B1 92 A2 49 9D 7B C2 5E 73 A9 91 B7 FE 5E EB
9F 1B 67 62 5C 54 E5 F5 37 72 56 48 5E F1 4D 2A 4C A5 48 36 1E B5 AF
1E 7E 92 FF 4E 85 48 DD 54 00 A4 EA 6F 8E A6 E0 64 63 E9 22 2A 91 5F
4C E1 A1 0B 83 B9 73 8D 46 AF 35 41 60 91 CD B4 99 D4 91 E3 76 43 59
B3 3D 08 4B 04 50 A9 81 6D 3C 18 9B 60 5C 7E EE A6 7F 12 8F 03 5E 21
80 A2 7E 8D BE AE E6 AD B9 42 A0 A9 BF FE 31 F4 8A 2D FD 5F 70 F2 38
55 CE C6 80 A2 A5 01 91 EB FE DF 7F 91 CC 71 98 A9 FC 80 C3 00 2B BD
5E 9F E9 B3 A3 E3 53 6B 2E 4D 5E DE 50 84 DD 91 F2 EA AA FF 67 D5 A2
B5 B9 92 80 9B 99 03 21 41 49 51 9E 60 DE F1 48 DD B4 06 18 CC CC B4
A0 A0 BF A3 BF 1E 2F A0 C4 84 28 4C 00 92 81 E9 8D 41 7A 4D 47 E7 BE
E3 73 6A 33 D7 7D 19 65 41 D2 27 0F 27 14 C6 E9 B3 03 0F 64 6B AA 76
9A 3B 0B A1 B4 6C 34 8D C9 D0 B8 1E B5 C6 FB 65 9A D7 1E 5E 71 7A 86
8C 1B 14 99 41 B8 A9 E8 6A 4D 50 C8 96 F5 29 48 6E 2B FD BB A3 D1 3D
C0 BF AF 6D B5 C1 BF BC 45 5C 10 01 99 EB 86 42 D7 64 8C C5 90 C8 DA
0F CA 88 20 02 EE 54 D9 6A DD 53 80 2F 23 F3 15 F0 92 81 71 27 07 87
17 8F B9 57 E3 CD B1 3A 88 D8 58 1B C4 E5 46 CD 3B DE 08 55 40 65 77
7D 8E 67 A2 EC 78 8A 2C B4 71 51 C7 22 54 3F C4 EF 8B 6D 75 78 E7 2A
A7 06 E8 7D A1 EC 0F 02 10 21 F9 AC 40 88 3F 2C 55 FE 5A AD FA 7B 87
B3 AC 39 01 DD A6 7B C5 1C 1F 70 7C 57 8E A9 28 B9 FF D6 B4 79 58 6F
05 79 0A 1C 5A A9 AA EF FE 14 45 8A 4A 4E 6E 3F F5 45 94 F5 F1 F5 CC
95 A6 C6 FF 0B 96 81 5C 23 61 6C AE 85 95 0C 70 36 E0 43 24 82 34 95
8C 8C C7 5B 8A 0C A5 48 95 A8 DE D0 6A 2C E2 2E 2B DE 5F 26 18 14 95
7E D4 07 14 CB 89 31 19 7A 48 99 45 49 74 85 B5 E8 B8 FA C5 C6 61 19
7E 2E C5 01 D4 CE 9D 33 10 B9 BF E1 8E 1C 84 1E 94 23 22 4C 70 04 FE
B9 49 CF DC 2C 23 B9 4B DF 6F 86 6E BE 13 AA 1E EC A4 91 5F 4A E7 0A
7A 96 B1 CA CC 30 34 8D 7E 0F A8 E0 59 1B E0 D7 C0 AC CC 13 EB E0 C5
32 B8 0D E6 93 05 11 2C 43 2F 9E 0E 89 60 F9 6F 49 D8 27 24 CC 0B CD
3E C2 9E 45 79 D9 0F C1 3F EE 92 6F 5B 26 0B 62 2D 88 33 CC 71 F3 F8
27 8B B1 79 97 B5 9D 69 0C 80 CD EE 63 10 FA 5C 7E 74 EC CC ED 5C E3
96 27 D5 C0 30 BB 46 A0 85 A1 4C 24 E4 E3 C5 40 3F 14 2E 01 8C 0D F8
AE F9 15 34 44 2F EC D4 F6 90 6F 9F 16 60 27 0B 7B 9E 68 57 8F FC D0
4D 5B FE E8 D4 58 DE 8E 61 BD AC 67 3F 1B B1 F9 08 21 95 D2 6B FE 1D
BC F8 FB 0C 47 98 24 A4 4E 04 66 D4 E7 2D 6C E1 2D 46 EF 88 48 27 7C
42 8C BC AA 88 29 2D 24 9E 22 FA 29 A2 91 E2 D5